h e
Ġ t
Ġ a
Ġ s
Ġ w
n d
Ġt he
e d
Ġ b
Ġt o
Ġa nd
Ġ h
Ġ f
i n
Ġw a
Ġ T
i t
r e
o u
Ġ l
Ġ d
Ġ c
Ġ p
a y
Ġwa s
e r
Ġ m
o m
Ġ he
ĠT he
i s
Ġ n
o n
a r
i m
Ġs a
l l
i d
Ġh a
Ġ g
Ġ S
a t
in g
o t
e n
a n
l e
o r
i r
Ġ H
a m
e t
Ġ it
Ġt h
i g
ĠThe y
i l
Ġ in
ĠH e
Ġp l
Ġ "
o w
v er
r i
Ġ u
u t
Ġd ay
Ġsa id
it h
p p
Ġpl ay
Ġb e
O n
Ġw ith
Ġ o
Ġ y
Ġhe r
Ġ r
o o
k ed
c e
Ġh is
ĠS he
Ġ I
l d
Ġs t
ĠT im
k e
Ġ e
n t
c k
Ġb ig
ver y
Ġy ou
v e
s t
Ġha pp
Ġ on
e nd
u n
a ll
il y
ri end
Ġf riend
Ġ L
Ġu p
Ġthe y
Ġwa nt
Ġw e
Ġha d
Ġn ot
he r
Ġl i
it t
Ġd o
Ġo f
Ġ B
a d
e s
Ġhapp y
Ġ M
en t
Ġ very
Ġth at
On e
Ġsa w
Ġm om
ou ld
' s
s e
Ġf or
itt le
Ġl ittle
Ġs o
Ġs he
Ġs h
im e
Ġ k
Ġt ime
Ġn e
Ġn am
c h
Ġthe re
. "
ou nd
Ġb o
Ġnam ed
ĠL ily
ir d
Ġs m
Ġwant ed
Ġb ird
ĠT om
v ed
Ġwe re
Ġb ut
T he
Ġfriend s
! "
ou t
h t
e l
a ke
a l
Ġa n
Ġto o
id e
Ġhe l
On ce
Ġw h
Ġhel p
u g
om e
Ġw ent
Ġa ll
ĠI t
Ġ A
Ġl oo
Ġ is
Ġup on
Ġl o
u e
t er
r y
o re
i nd
g et
Ġf un
Ġto y
i ll
a ck
get her
Ġa t
Ġ j
Ġa s
Ġd id
am e
Ġ re
Ġto gether
u r
Ġc at
r a
Ġdo g
Ġs e
l y
Ġt re
oo d
Ġg ir
Ġc an
i c
Ġb all
m y
Ġgir l
Ġc ould
ar d
t ed
Ġh im
Ġthe ir
e c
ar k
Ġr o
w ay
Ġk n
Ġplay ed
? "
he d
Ġf r
a in
he n
Ġl e
Ġ out
u m
' t
a x
Ġg o
Ġthe m
Ġa re
Ġbo y
Ġsa d
u l
ou g
Ġha ve
Ġtre e
Ġc l
Ġlo ved
ot her
Ġb ack
Ġloo ked
Ġs p
Ġf ound
ow n
on e
ĠM ax
Ġm e
Ġs c
Ġm an
a re
Ġst ar
ĠS ue
h ing
s ide
Ġp ark
on g
o p
f ul
Ġbe c
Ġli ke
Ġw ould
Ġli ked
el t
r ound
Ġ One
Ġf elt
ig ht
Ġf a
ĠB en
Ġl a
Ġ W
e ll
Ġm ake
ĠB ut
Y ou
Ġas ked
Ġne w
i ce
il ed
s s
ar ed
a g
ĠS am
oug ht
Ġse e
om et
Ġa l
Ġstar ted
Ġa g
Ġc ame
Ġn o
Ġsm iled
Ġc ar
Ġ other
ri ed
Ġs omet
Ġg ood
Ġs ay
Ġb r
Ġsm all
ad e
p ot
o b
ing s
Ġw or
Ġa way
a b
ou se
Ġf ind
u s
Ġe x
Ġfr om
Ġp ut
t y
Ġth ought
Ġwh at
Ġm ade
en ed
Ġplay ing
i e
Ġh ome
k ing
Ġwa l
a ch
Ġsomet hing
i a
i le
Ġe very
Ġr an
ĠS pot
Ġag ain
Ġ F
Ġc o
a ve
u c
ar n
Ġbo x
Ġd own
d d
Ġtoy s
oo k
Ġ J
Ġp r
Ġtoo k
Ġs w
Ġs ome
i f
Ġla ug
ou d
u st
e w
Ġs un
Ġa round
n y
Ġsc ared
Ġli ved
Ġle arn
Ġw ill
Ġm y
Ġf l
u re
Ġyou r
i ck
re t
e p
Ġh ouse
Ġw hen
Ġ You
Ġth ings
Ġb l
, "
an k
u ck
Ġthe n
pp ed
ĠM ia
is t
T h
Ġb ot
Ġa b
is h
Ġwh o
Ġg et
Ġkn ow
uc y
Ġf e
a s
Ġt ried
Ġg ot
Ġkn ew
it ed
Ġl ot
u ch
Ġsay s
all y
a p
Ġin t
Ġc h
i ve
Ġr ed
T im
nd er
um p
L ily
Ġp ret
ou s
Ġab out
Ġc are
f ter
Ġd ec
ĠS o
Ġo p
f e
Ġloo k
Ġ D
Ġman y
u se
Ġu n
Ġm ore
is e
way s
Ġ E
n n
Ġex c
ĠM om
Ġal ways
Ġp ic
Ġp o
â Ģ
Ġbe st
q u
Ġan y
Ġsh ow
Ġbot h
ĠL ucy
it e
Ġro om
Ġh ug
a ce
er s
a use
Ġint o
Ġwa ter
Ġbec ame
Ġout side
Ġlearn ed
Ġlaug hed
u dd
Ġd ad
id ed
an t
Ġbec ause
Ġon e
Ġg re
Ġp e
Ġdec ided
ĠA nd
p r
Ġexc ited
Ġ v
Y es
Ġn ice
Ġh o
nn a
Ġ ke
Ġe at
Ġs or
Ġth is
ar a
Ġj ump
Ġl ong
Ġfe el
The y
ĠB ob
T om
Ġm o
Ġto ld
Ġr un
u ll
in k
Ġs ur
Ġro ck
Ġin side
Ġpret ty
Ġs l
Ġs k
le w
in y
Ġt ake
Ġa m
Ġg ave
Ġsur pr
Ġfa st
Ġe ach
Ġto w
ou r
es s
r o
v en
g ed
Ġsor ry
Ġne ed
Ġ or
Ġm uch
Ġth an
ur t
Ġh ow
is ed
Ġst r
ab le
Ġu nder
W h
o g
g e
Ġk ind
a nd
Ġg ra
ĠA my
im al
v ing
Ġan imal
f t
Ġt a
B ut
Ġf ood
et ter
C an
Ġwal ked
ĠW e
Ġt r
Ġwa t
Ġha nd
Ġo ld
ĠH is
Ġl ist
Ġh ig
f f
Ġj ust
Ġcl o
Ġfl ow
Ġ en
r om
Ġc le
c hed
Ġdid n
ur n
Ġ ide
ec i
M om
a se
Ġt ry
Ġide a
Ġd an
i on
he re
Ġsk y
Ġit s
eci al
Ġsp ecial
Ġne ar
Ġf lew
Ġu s
ĠA nna
Ġt w
Ġhapp ened
p l
g ry
Ġf o
in e
Ġf i
Ġs n
ĠT h
Th ank
Ġ if
Ġc ake
b er
Ġf ish
Ġanimal s
Ġst or
Ġo ver
Ġb ug
l f
Ġhe ard
at e
Ġcare ful
e x
Ġc om
udd en
r m
Ġb etter
Ġlot s
Ġb y
Ġl et
Ġh ard
Ġw ind
Ġne ver
Ġh urt
Ġbe ar
Ġsh are
op le
ĠE very
Ġd re
udden ly
m ore
Ġany more
Ġe ven
Ġt e
or t
Ġt al
p ec
Ġf ly
ĠS ara
Ġsa fe
Ġlo ve
ad y
Ġb u
Ġe nd
Ġd on
Ġ K
Ġf ore
Ċ Ċ
Ġg ive
Ġpe ople
Ġa fter
Ġcle an
u ff
Ġpr oud
Ġop ened
b ed
' m
Ġhig h
Ġg r
Ġf am
Ġb ad
Ġdo or
Ġsurpr ised
ĠThe n
itt y
a k
Ġt urn
A s
Ġg l
ag e
ĠF rom
um my
oug h
Ġg round
Ġcl im
ĠH er
Ġthan ked
Ġ im
ĠW hen
i z
Ġbl ue
Ġc all
Ġb ook
k ay
ard en
Ġg arden
il d
Ġf ar
Ġm a
Ġe ver
Ġwa y
pec ted
Ġhug ged
Ġc he
Ġsh iny
Ġco l
Ġpic ked
L et
Ġsm ile
Ġm ag
Ġl oud
Ġc u
Ġof f
Ġsh ould
Ġc ome
ĠI n
ex pected
Ġun expected
x t
Ġne xt
Ġst ick
Ġpl ace
Ġwal k
Ġ N
t ure
Ġfam ily
he s
e m
Ġ qu
Ġcol or
b y
Ġ P
Ġst ill
i p
Ġu nt
Ġstr ong
Ġgre at
Ġbo at
Ġa pp
le s
Ġha t
o y
Ġhapp ily
Ġbr o
oo l
Ġunt il
Ġjump ed
Ġtow n
Ġc a
Ġfr og
d y
Ġk id
Ġhelp ed
ĠS ally
Ġfore st
i es
Ġst o
or n
c t
Ġdo ll
a ut
Ġs qu
ar y
ĠK itty
Ġbe aut
Ġlist en
Ġshow ed
Ġm et
Ġn ow
N o
uff y
Ġp ar
Ġmag ic
